/**
 * model.h - FLUX CNC IoT - Edge AI
 * GENERADO AUTOMATICAMENTE por export_weights.py
 * NO EDITAR MANUALMENTE
 * Tamano del modelo: 2504 bytes
 */

#pragma once

const unsigned char g_model[] = {
  0x1c, 0x00, 0x00, 0x00, 0x54, 0x46, 0x4c, 0x33, 0x14, 0x00, 0x20, 0x00, 0x1c, 0x00, 0x18, 0x00, 0x14, 0x00, 0x10, 0x00, 0x0c, 0x00, 0x00, 0x00, 0x08, 0x00, 0x04, 0x00, 0x14, 0x00, 0x00, 0x00, 0x1c, 0x00, 0x00, 0x00, 0x94, 0x00, 0x00, 0x00, 0xec, 0x00, 0x00, 0x00, 0xf0, 0x04, 0x00, 0x00, 0x00, 0x05, 0x00, 0x00, 0x64, 0x09, 0x00, 0x00, 0x03, 0x00, 0x00, 0x00, 0x01, 0x00, 0x00, 0x00, 0x10, 0x00, 0x00, 0x00, 0x00, 0x00, 0x0a, 0x00, 0x10, 0x00, 0x0c, 0x00, 0x08, 0x00, 0x04, 0x00, 0x0a, 0x00, 0x00, 0x00, 0x0c, 0x00, 0x00, 0x00, 0x1c, 0x00, 0x00, 0x00, 0x3c, 0x00, 0x00, 0x00, 0x0f, 0x00, 0x00, 0x00, 0x73, 0x65, 0x72, 0x76, 0x69, 0x6e, 0x67, 0x5f, 0x64, 0x65, 0x66, 0x61, 0x75, 0x6c, 0x74, 0x00, 0x01, 0x00, 0x00, 0x00, 0x04, 0x00, 0x00, 0x00, 0x94, 0xff, 0xff, 0xff, 0x07, 0x00, 0x00, 0x00, 0x04, 0x00, 0x00, 0x00, 0x08, 0x00, 0x00, 0x00, 0x6f, 0x75, 0x74, 0x70, 0x75, 0x74, 0x5f, 0x30, 0x00, 0x00, 0x00, 0x00, 0x01, 0x00, 0x00, 0x00, 0x04, 0x00, 0x00, 0x00, 0xfa, 0xfa, 0xff, 0xff, 0x04, 0x00, 0x00, 0x00, 0x0b, 0x00, 0x00, 0x00, 0x69, 0x6e, 0x70, 0x75, 0x74, 0x5f, 0x6c, 0x61, 0x79, 0x65, 0x72, 0x00, 0x02, 0x00, 0x00, 0x00, 0x34, 0x00, 0x00, 0x00, 0x04, 0x00, 0x00, 0x00, 0xdc, 0xff, 0xff, 0xff, 0x0a, 0x00, 0x00, 0x00, 0x04, 0x00, 0x00, 0x00, 0x13, 0x00, 0x00, 0x00, 0x43, 0x4f, 0x4e, 0x56, 0x45, 0x52, 0x53, 0x49, 0x4f, 0x4e, 0x5f, 0x4d, 0x45, 0x54, 0x41, 0x44, 0x41, 0x54, 0x41, 0x00, 0x08, 0x00, 0x0c, 0x00, 0x08, 0x00, 0x04, 0x00, 0x08, 0x00, 0x00, 0x00, 0x09, 0x00, 0x00, 0x00, 0x04, 0x00, 0x00, 0x00, 0x13, 0x00, 0x00, 0x00, 0x6d, 0x69, 0x6e, 0x5f, 0x72, 0x75, 0x6e, 0x74, 0x69, 0x6d, 0x65, 0x5f, 0x76, 0x65, 0x72, 0x73, 0x69, 0x6f, 0x6e, 0x00, 0x0b, 0x00, 0x00, 0x00, 0x00, 0x04, 0x00, 0x00, 0xf8, 0x03, 0x00, 0x00, 0xdc, 0x03, 0x00, 0x00, 0x0c, 0x03, 0x00, 0x00, 0xfc, 0x00, 0x00, 0x00, 0xac, 0x00, 0x00, 0x00, 0xa4, 0x00, 0x00, 0x00, 0x9c, 0x00, 0x00, 0x00, 0x94, 0x00, 0x00, 0x00, 0x74, 0x00, 0x00, 0x00, 0x04, 0x00, 0x00, 0x00, 0x9e, 0xfb, 0xff, 0xff, 0x04, 0x00, 0x00, 0x00, 0x60, 0x00, 0x00, 0x00, 0x10, 0x00, 0x00, 0x00, 0x00, 0x00, 0x00, 0x00, 0x08, 0x00, 0x0e, 0x00, 0x08, 0x00, 0x04, 0x00, 0x08, 0x00, 0x00, 0x00, 0x10, 0x00, 0x00, 0x00, 0x24, 0x00, 0x00, 0x00, 0x00, 0x00, 0x06, 0x00, 0x08, 0x00, 0x04, 0x00, 0x06, 0x00, 0x00, 0x00, 0x04, 0x00, 0x00, 0x00, 0x00, 0x00, 0x00, 0x00, 0x0c, 0x00, 0x18, 0x00, 0x14, 0x00, 0x10, 0x00, 0x0c, 0x00, 0x04, 0x00, 0x0c, 0x00, 0x00, 0x00, 0x4e, 0x9d, 0x52, 0xf6, 0x94, 0xef, 0xfc, 0x48, 0x02, 0x00, 0x00, 0x00, 0x02, 0x00, 0x00, 0x00, 0x04, 0x00, 0x00, 0x00, 0x06, 0x00, 0x00, 0x00, 0x32, 0x2e, 0x32, 0x31, 0x2e, 0x30, 0x00, 0x00, 0x0a, 0xfc, 0xff, 0xff, 0x04, 0x00, 0x00, 0x00, 0x10, 0x00, 0x00, 0x00, 0x31, 0x2e, 0x35, 0x2e, 0x30, 0x00, 0x00, 0x00, 0x00, 0x00, 0x00, 0x00, 0x00, 0x00, 0x00, 0x00, 0x6c, 0xf8, 0xff, 0xff, 0x70, 0xf8, 0xff, 0xff, 0x74, 0xf8, 0xff, 0xff, 0x32, 0xfc, 0xff, 0xff, 0x04, 0x00, 0x00, 0x00, 0x40, 0x00, 0x00, 0x00, 0xd1, 0x95, 0xf8, 0x3e, 0x0f, 0xd6, 0x0c, 0x3f, 0x8a, 0x42, 0x39, 0x3f, 0xcb, 0xa8, 0x61, 0xbe, 0xf4, 0x67, 0xdc, 0x3e, 0xbf, 0x27, 0x17, 0xbe, 0x09, 0xeb, 0x12, 0x3f, 0x34, 0x56, 0x7a, 0x3e, 0xb2, 0x2b, 0x4c, 0xbb, 0x10, 0xad, 0x5d, 0x3e, 0x22, 0xca, 0x98, 0x3d, 0x69, 0xfc, 0x3c, 0x3e, 0xc1, 0x45, 0x68, 0xbe, 0x6d, 0xbe, 0x71, 0x3e, 0x2b, 0xdd, 0x73, 0xbe, 0xea, 0xf7, 0xcc, 0x3d, 0x7e, 0xfc, 0xff, 0xff, 0x04, 0x00, 0x00, 0x00, 0x00, 0x02, 0x00, 0x00, 0x3e, 0x78, 0x49, 0x3f, 0x60, 0x57, 0x11, 0xbf, 0x44, 0x0f, 0xff, 0xbe, 0x11, 0x62, 0xc0, 0x3e, 0xb7, 0xb8, 0x0b, 0x3f, 0x73, 0x7e, 0xc2, 0x3c, 0x7a, 0x24, 0xdd, 0x3e, 0xba, 0xab, 0x82, 0x3d, 0x22, 0x9a, 0x7e, 0xbe, 0x5f, 0x51, 0xe7, 0x3d, 0xd8, 0x05, 0x06, 0xbe, 0x18, 0xdd, 0x61, 0x3f, 0x3f, 0x43, 0xbe, 0xbe, 0x80, 0xf2, 0x55, 0x3e, 0xe0, 0x24, 0x41, 0x3f, 0xe4, 0x4d, 0x39, 0x3e, 0x05, 0x5e, 0x2e, 0xbe, 0x9f, 0xd8, 0xa5, 0x3e, 0x63, 0xb5, 0x04, 0xbf, 0xd1, 0x6e, 0x76, 0x3f, 0xa8, 0xcf, 0x18, 0xbf, 0xe3, 0x2d, 0x5c, 0x3e, 0xcd, 0x86, 0x77, 0x3f, 0x6f, 0x7c, 0x9e, 0x3e, 0x49, 0x42, 0x90, 0x3e, 0xb9, 0xc9, 0x9e, 0xbe, 0x9f, 0xaa, 0x28, 0x3c, 0xf6, 0x33, 0xd1, 0x3d, 0xcb, 0x71, 0x86, 0xbe, 0x62, 0x86, 0x65, 0x3e, 0x66, 0x21, 0x7c, 0xbe, 0x8c, 0x7a, 0x34, 0xbe, 0xba, 0x87, 0x0b, 0xbf, 0xf9, 0x9d, 0xd8, 0x3e, 0x03, 0x82, 0x8e, 0x3e, 0xc9, 0xfd, 0x0f, 0x3f, 0x0e, 0x28, 0x07, 0x3f, 0xad, 0x4a, 0x34, 0x3f, 0x2b, 0x9f, 0x3e, 0xbf, 0x67, 0xdc, 0x74, 0x3f, 0x10, 0x74, 0x28, 0x3e, 0x91, 0xde, 0xa0, 0x3e, 0xab, 0xf7, 0x47, 0x3d, 0x37, 0x3a, 0x8f, 0x3e, 0xc6, 0x92, 0xbc, 0x3c, 0x08, 0x13, 0x33, 0x3f, 0x4c, 0x66, 0x49, 0xbf, 0xa6, 0x9b, 0xb0, 0x3f, 0xb6, 0xd5, 0x37, 0x3e, 0xb8, 0x76, 0x37, 0x3e, 0x65, 0x4f, 0x29, 0xbe, 0xcd, 0x5c, 0x05, 0xbf, 0xe4, 0x4e, 0xe1, 0x3d, 0x26, 0xd6, 0x8f, 0xbd, 0x9c, 0x18, 0x25, 0xbf, 0x1e, 0x18, 0x85, 0x3e, 0x36, 0x1c, 0xb1, 0xbe, 0x7b, 0xdd, 0x1e, 0xbe, 0x8b, 0xe3, 0xd5, 0xbd, 0x60, 0xf6, 0xf9, 0xbe, 0x14, 0x00, 0x16, 0x3d, 0x9e, 0x13, 0x78, 0xbf, 0x40, 0x65, 0xf0, 0x3d, 0xfe, 0x0c, 0x61, 0xbe, 0xd0, 0x27, 0xbe, 0x3e, 0x23, 0x94, 0x83, 0xbc, 0xca, 0x3d, 0x80, 0x3f, 0x78, 0x66, 0x87, 0x3e, 0x8b, 0xe5, 0xc6, 0xbe, 0x0b, 0x5c, 0x66, 0x3e, 0x67, 0xc7, 0x3b, 0xbe, 0x52, 0x89, 0x1c, 0x3f, 0x6a, 0x62, 0xa7, 0x3d, 0x10, 0x55, 0xb1, 0x3d, 0x54, 0xf0, 0x18, 0x3f, 0x8f, 0x60, 0x92, 0x3e, 0x9e, 0x41, 0x54, 0x3f, 0xb7, 0xf3, 0x5a, 0x3f, 0x4c, 0x7f, 0x68, 0x3f, 0x73, 0xae, 0x5c, 0x3e, 0x16, 0x32, 0x1e, 0x3e, 0xdc, 0x41, 0xfd, 0x3d, 0xf1, 0x59, 0x81, 0x3d, 0xb4, 0x66, 0xfd, 0x3e, 0xe6, 0xe5, 0xdf, 0xbe, 0x92, 0xf0, 0xb6, 0x3e, 0x33, 0xe9, 0x16, 0xbf, 0xb2, 0x5e, 0x2a, 0x3f, 0x80, 0x66, 0x69, 0xbd, 0xe2, 0x5d, 0x07, 0xbf, 0xfa, 0x67, 0x02, 0x3e, 0x46, 0x0f, 0x10, 0xbf, 0x9b, 0x09, 0xac, 0xbc, 0x06, 0x4a, 0x0b, 0xbf, 0x43, 0x61, 0x53, 0xbf, 0x2f, 0x6d, 0x9d, 0x3e, 0xf2, 0x6c, 0xe1, 0xbd, 0xe5, 0x97, 0xb8, 0x3e, 0x9f, 0xd5, 0x34, 0x3f, 0xd9, 0x42, 0x63, 0xbe, 0xc0, 0xc8, 0x97, 0xbe, 0xb9, 0xb4, 0x17, 0xbf, 0x0c, 0x31, 0x5e, 0xbf, 0x78, 0xc8, 0x8a, 0x3f, 0x8f, 0x00, 0x2a, 0xbe, 0x81, 0xbe, 0x89, 0x3c, 0xcb, 0xfe, 0xee, 0x3d, 0x1e, 0x62, 0x36, 0x3e, 0xdc, 0x98, 0xa1, 0xbe, 0xa5, 0x1d, 0xda, 0x3d, 0xf4, 0xbd, 0xb3, 0x3f, 0x7b, 0xea, 0x68, 0xbf, 0xa2, 0x75, 0x38, 0xbe, 0xd7, 0x01, 0x9a, 0x3d, 0x19, 0x5c, 0x31, 0x3f, 0x67, 0x2b, 0xd5, 0x3d, 0x75, 0x69, 0x0e, 0xbf, 0x8d, 0xe7, 0x0a, 0xbf, 0xb5, 0x2a, 0x88, 0xbf, 0x97, 0x3a, 0x8f, 0xbe, 0x06, 0x56, 0xa9, 0xbd, 0x9d, 0x7a, 0x20, 0xbf, 0x3c, 0x2c, 0xa2, 0x3e, 0xe4, 0xfa, 0xc6, 0xbe, 0xae, 0xa8, 0x71, 0xbe, 0xf1, 0xd3, 0x23, 0xbf, 0x57, 0x50, 0x41, 0xbf, 0x4e, 0x82, 0x0c, 0xbf, 0x8a, 0xfe, 0xff, 0xff, 0x04, 0x00, 0x00, 0x00, 0xc0, 0x00, 0x00, 0x00, 0x15, 0x33, 0x9c, 0xbf, 0x7c, 0x1c, 0x8f, 0x3c, 0x9c, 0xe6, 0x73, 0xbf, 0x92, 0x2c, 0x9c, 0x3e, 0x6d, 0x2a, 0x8c, 0xbf, 0xf9, 0xfc, 0x97, 0xbe, 0xd6, 0xa9, 0x99, 0x3d, 0xa8, 0xd2, 0x1a, 0x3e, 0x4e, 0xc5, 0x80, 0xbf, 0x8f, 0x2d, 0x2a, 0xbe, 0x0d, 0x08, 0xa1, 0xbf, 0x1d, 0x63, 0xd2, 0x3e, 0x26, 0x2f, 0x2b, 0x3f, 0x8d, 0x2e, 0x28, 0x3f, 0xc9, 0x40, 0x54, 0x3f, 0xce, 0x7d, 0xd4, 0x3e, 0x88, 0x56, 0xaf, 0x3e, 0x10, 0xc8, 0xe2, 0xbe, 0xf2, 0xf7, 0x16, 0xbf, 0xf7, 0x89, 0xad, 0x3e, 0x2c, 0x15, 0xaf, 0x3f, 0xae, 0x73, 0xb5, 0x3f, 0x62, 0x9a, 0xe3, 0x3e, 0x57, 0xf1, 0x34, 0x3f, 0x29, 0x4f, 0x06, 0x3d, 0x37, 0x6e, 0xe1, 0xbd, 0xb9, 0xfa, 0x4b, 0x3f, 0x7a, 0x3e, 0x3b, 0x3e, 0xf7, 0x48, 0xa1, 0xbf, 0xec, 0x1a, 0x7b, 0xbf, 0x40, 0x8a, 0x25, 0xbe, 0xf8, 0xd0, 0xfa, 0xbe, 0x96, 0x5c, 0x23, 0x3f, 0x05, 0x6a, 0x89, 0x3f, 0x30, 0x20, 0x9a, 0x3e, 0x77, 0x9c, 0x16, 0x3e, 0xf8, 0x23, 0x7d, 0x3e, 0x56, 0x31, 0xdc, 0xbd, 0x09, 0xa5, 0x9b, 0xbf, 0xdd, 0xa3, 0x1c, 0xbf, 0xd4, 0xa1, 0x6b, 0xbd, 0xdb, 0xde, 0x77, 0x3f, 0x47, 0x77, 0xb9, 0xbe, 0x2c, 0xe2, 0x6d, 0xbf, 0x79, 0xd8, 0x1e, 0xbd, 0x5b, 0xf9, 0xce, 0x3c, 0x76, 0x62, 0x25, 0xbd, 0xea, 0x60, 0x87, 0xbf, 0x56, 0xff, 0xff, 0xff, 0x04, 0x00, 0x00, 0x00, 0x0c, 0x00, 0x00, 0x00, 0xdf, 0x51, 0x3b, 0xbe, 0xe6, 0x32, 0x03, 0xbd, 0x79, 0x09, 0x32, 0x3e, 0xb4, 0xfb, 0xff, 0xff, 0xb8, 0xfb, 0xff, 0xff, 0x0f, 0x00, 0x00, 0x00, 0x4d, 0x4c, 0x49, 0x52, 0x20, 0x43, 0x6f, 0x6e, 0x76, 0x65, 0x72, 0x74, 0x65, 0x64, 0x2e, 0x00, 0x01, 0x00, 0x00, 0x00, 0x14, 0x00, 0x00, 0x00, 0x00, 0x00, 0x0e, 0x00, 0x18, 0x00, 0x14, 0x00, 0x10, 0x00, 0x0c, 0x00, 0x08, 0x00, 0x04, 0x00, 0x0e, 0x00, 0x00, 0x00, 0x14, 0x00, 0x00, 0x00, 0x1c, 0x00, 0x00, 0x00, 0xfc, 0x00, 0x00, 0x00, 0x00, 0x01, 0x00, 0x00, 0x04, 0x01, 0x00, 0x00, 0x04, 0x00, 0x00, 0x00, 0x6d, 0x61, 0x69, 0x6e, 0x00, 0x00, 0x00, 0x00, 0x03, 0x00, 0x00, 0x00, 0xa4, 0x00, 0x00, 0x00, 0x60, 0x00, 0x00, 0x00, 0x14, 0x00, 0x00, 0x00, 0x00, 0x00, 0x0e, 0x00, 0x1a, 0x00, 0x14, 0x00, 0x10, 0x00, 0x0c, 0x00, 0x0b, 0x00, 0x04, 0x00, 0x0e, 0x00, 0x00, 0x00, 0x1c, 0x00, 0x00, 0x00, 0x00, 0x00, 0x00, 0x09, 0x1c, 0x00, 0x00, 0x00, 0x20, 0x00, 0x00, 0x00, 0x01, 0x00, 0x00, 0x00, 0x00, 0x00, 0x06, 0x00, 0x08, 0x00, 0x04, 0x00, 0x06, 0x00, 0x00, 0x00, 0x00, 0x00, 0x80, 0x3f, 0x01, 0x00, 0x00, 0x00, 0x07, 0x00, 0x00, 0x00, 0x01, 0x00, 0x00, 0x00, 0x06, 0x00, 0x00, 0x00, 0x00, 0x00, 0x0e, 0x00, 0x14, 0x00, 0x00, 0x00, 0x10, 0x00, 0x0c, 0x00, 0x0b, 0x00, 0x04, 0x00, 0x0e, 0x00, 0x00, 0x00, 0x10, 0x00, 0x00, 0x00, 0x00, 0x00, 0x00, 0x08, 0x0c, 0x00, 0x00, 0x00, 0x10, 0x00, 0x00, 0x00, 0x88, 0xfc, 0xff, 0xff, 0x01, 0x00, 0x00, 0x00, 0x06, 0x00, 0x00, 0x00, 0x03, 0x00, 0x00, 0x00, 0x05, 0x00, 0x00, 0x00, 0x02, 0x00, 0x00, 0x00, 0x01, 0x00, 0x00, 0x00, 0x00, 0x00, 0x0e, 0x00, 0x16, 0x00, 0x00, 0x00, 0x10, 0x00, 0x0c, 0x00, 0x0b, 0x00, 0x04, 0x00, 0x0e, 0x00, 0x00, 0x00, 0x18, 0x00, 0x00, 0x00, 0x00, 0x00, 0x00, 0x08, 0x18, 0x00, 0x00, 0x00, 0x1c, 0x00, 0x00, 0x00, 0x00, 0x00, 0x06, 0x00, 0x08, 0x00, 0x07, 0x00, 0x06, 0x00, 0x00, 0x00, 0x00, 0x00, 0x00, 0x01, 0x01, 0x00, 0x00, 0x00, 0x05, 0x00, 0x00, 0x00, 0x03, 0x00, 0x00, 0x00, 0x00, 0x00, 0x00, 0x00, 0x03, 0x00, 0x00, 0x00, 0x04, 0x00, 0x00, 0x00, 0x01, 0x00, 0x00, 0x00, 0x07, 0x00, 0x00, 0x00, 0x01, 0x00, 0x00, 0x00, 0x00, 0x00, 0x00, 0x00, 0x08, 0x00, 0x00, 0x00, 0xd4, 0x02, 0x00, 0x00, 0x74, 0x02, 0x00, 0x00, 0x10, 0x02, 0x00, 0x00, 0xc4, 0x01, 0x00, 0x00, 0x64, 0x01, 0x00, 0x00, 0xd8, 0x00, 0x00, 0x00, 0x60, 0x00, 0x00, 0x00, 0x04, 0x00, 0x00, 0x00, 0x62, 0xfd, 0xff, 0xff, 0x00, 0x00, 0x00, 0x01, 0x14, 0x00, 0x00, 0x00, 0x1c, 0x00, 0x00, 0x00, 0x1c, 0x00, 0x00, 0x00, 0x08, 0x00, 0x00, 0x00, 0x34, 0x00, 0x00, 0x00, 0x02, 0x00, 0x00, 0x00, 0xff, 0xff, 0xff, 0xff, 0x03, 0x00, 0x00, 0x00, 0x4c, 0xfd, 0xff, 0xff, 0x1b, 0x00, 0x00, 0x00, 0x53, 0x74, 0x61, 0x74, 0x65, 0x66, 0x75, 0x6c, 0x50, 0x61, 0x72, 0x74, 0x69, 0x74, 0x69, 0x6f, 0x6e, 0x65, 0x64, 0x43, 0x61, 0x6c, 0x6c, 0x5f, 0x31, 0x3a, 0x30, 0x00, 0x02, 0x00, 0x00, 0x00, 0x01, 0x00, 0x00, 0x00, 0x03, 0x00, 0x00, 0x00, 0xba, 0xfd, 0xff, 0xff, 0x00, 0x00, 0x00, 0x01, 0x14, 0x00, 0x00, 0x00, 0x1c, 0x00, 0x00, 0x00, 0x1c, 0x00, 0x00, 0x00, 0x07, 0x00, 0x00, 0x00, 0x50, 0x00, 0x00, 0x00, 0x02, 0x00, 0x00, 0x00, 0xff, 0xff, 0xff, 0xff, 0x03, 0x00, 0x00, 0x00, 0xa4, 0xfd, 0xff, 0xff, 0x36, 0x00, 0x00, 0x00, 0x6d, 0x6c, 0x70, 0x5f, 0x63, 0x6e, 0x63, 0x5f, 0x31, 0x2f, 0x64, 0x65, 0x6e, 0x73, 0x65, 0x5f, 0x31, 0x5f, 0x32, 0x2f, 0x4d, 0x61, 0x74, 0x4d, 0x75, 0x6c, 0x3b, 0x6d, 0x6c, 0x70, 0x5f, 0x63, 0x6e, 0x63, 0x5f, 0x31, 0x2f, 0x64, 0x65, 0x6e, 0x73, 0x65, 0x5f, 0x31, 0x5f, 0x32, 0x2f, 0x42, 0x69, 0x61, 0x73, 0x41, 0x64, 0x64, 0x00, 0x00, 0x02, 0x00, 0x00, 0x00, 0x01, 0x00, 0x00, 0x00, 0x03, 0x00, 0x00, 0x00, 0x2e, 0xfe, 0xff, 0xff, 0x00, 0x00, 0x00, 0x01, 0x14, 0x00, 0x00, 0x00, 0x1c, 0x00, 0x00, 0x00, 0x1c, 0x00, 0x00, 0x00, 0x06, 0x00, 0x00, 0x00, 0x64, 0x00, 0x00, 0x00, 0x02, 0x00, 0x00, 0x00, 0xff, 0xff, 0xff, 0xff, 0x10, 0x00, 0x00, 0x00, 0x18, 0xfe, 0xff, 0xff, 0x49, 0x00, 0x00, 0x00, 0x6d, 0x6c, 0x70, 0x5f, 0x63, 0x6e, 0x63, 0x5f, 0x31, 0x2f, 0x64, 0x65, 0x6e, 0x73, 0x65, 0x5f, 0x31, 0x2f, 0x4d, 0x61, 0x74, 0x4d, 0x75, 0x6c, 0x3b, 0x6d, 0x6c, 0x70, 0x5f, 0x63, 0x6e, 0x63, 0x5f, 0x31, 0x2f, 0x64, 0x65, 0x6e, 0x73, 0x65, 0x5f, 0x31, 0x2f, 0x52, 0x65, 0x6c, 0x75, 0x3b, 0x6d, 0x6c, 0x70, 0x5f, 0x63, 0x6e, 0x63, 0x5f, 0x31, 0x2f, 0x64, 0x65, 0x6e, 0x73, 0x65, 0x5f, 0x31, 0x2f, 0x42, 0x69, 0x61, 0x73, 0x41, 0x64, 0x64, 0x00, 0x00, 0x00, 0x02, 0x00, 0x00, 0x00, 0x01, 0x00, 0x00, 0x00, 0x10, 0x00, 0x00, 0x00, 0x12, 0xff, 0xff, 0xff, 0x00, 0x00, 0x00, 0x01, 0x10, 0x00, 0x00, 0x00, 0x10, 0x00, 0x00, 0x00, 0x05, 0x00, 0x00, 0x00, 0x40, 0x00, 0x00, 0x00, 0x90, 0xfe, 0xff, 0xff, 0x30, 0x00, 0x00, 0x00, 0x6d, 0x6c, 0x70, 0x5f, 0x63, 0x6e, 0x63, 0x5f, 0x31, 0x2f, 0x64, 0x65, 0x6e, 0x73, 0x65, 0x5f, 0x31, 0x2f, 0x52, 0x65, 0x6c, 0x75, 0x3b, 0x6d, 0x6c, 0x70, 0x5f, 0x63, 0x6e, 0x63, 0x5f, 0x31, 0x2f, 0x64, 0x65, 0x6e, 0x73, 0x65, 0x5f, 0x31, 0x2f, 0x42, 0x69, 0x61, 0x73, 0x41, 0x64, 0x64, 0x00, 0x00, 0x00, 0x00, 0x01, 0x00, 0x00, 0x00, 0x10, 0x00, 0x00, 0x00, 0x6e, 0xff, 0xff, 0xff, 0x00, 0x00, 0x00, 0x01, 0x10, 0x00, 0x00, 0x00, 0x10, 0x00, 0x00, 0x00, 0x04, 0x00, 0x00, 0x00, 0x28, 0x00, 0x00, 0x00, 0xec, 0xfe, 0xff, 0xff, 0x18, 0x00, 0x00, 0x00, 0x6d, 0x6c, 0x70, 0x5f, 0x63, 0x6e, 0x63, 0x5f, 0x31, 0x2f, 0x64, 0x65, 0x6e, 0x73, 0x65, 0x5f, 0x31, 0x2f, 0x4d, 0x61, 0x74, 0x4d, 0x75, 0x6c, 0x00, 0x00, 0x00, 0x00, 0x02, 0x00, 0x00, 0x00, 0x10, 0x00, 0x00, 0x00, 0x08, 0x00, 0x00, 0x00, 0xb6, 0xff, 0xff, 0xff, 0x00, 0x00, 0x00, 0x01, 0x10, 0x00, 0x00, 0x00, 0x10, 0x00, 0x00, 0x00, 0x03, 0x00, 0x00, 0x00, 0x28, 0x00, 0x00, 0x00, 0x34, 0xff, 0xff, 0xff, 0x1a, 0x00, 0x00, 0x00, 0x6d, 0x6c, 0x70, 0x5f, 0x63, 0x6e, 0x63, 0x5f, 0x31, 0x2f, 0x64, 0x65, 0x6e, 0x73, 0x65, 0x5f, 0x31, 0x5f, 0x32, 0x2f, 0x4d, 0x61, 0x74, 0x4d, 0x75, 0x6c, 0x00, 0x00, 0x02, 0x00, 0x00, 0x00, 0x03, 0x00, 0x00, 0x00, 0x10, 0x00, 0x00, 0x00, 0x00, 0x00, 0x16, 0x00, 0x18, 0x00, 0x14, 0x00, 0x00, 0x00, 0x10, 0x00, 0x0c, 0x00, 0x08, 0x00, 0x00, 0x00, 0x00, 0x00, 0x00, 0x00, 0x07, 0x00, 0x16, 0x00, 0x00, 0x00, 0x00, 0x00, 0x00, 0x01, 0x10, 0x00, 0x00, 0x00, 0x10, 0x00, 0x00, 0x00, 0x02, 0x00, 0x00, 0x00, 0x28, 0x00, 0x00, 0x00, 0x94, 0xff, 0xff, 0xff, 0x1b, 0x00, 0x00, 0x00, 0x6d, 0x6c, 0x70, 0x5f, 0x63, 0x6e, 0x63, 0x5f, 0x31, 0x2f, 0x64, 0x65, 0x6e, 0x73, 0x65, 0x5f, 0x31, 0x5f, 0x32, 0x2f, 0x42, 0x69, 0x61, 0x73, 0x41, 0x64, 0x64, 0x00, 0x01, 0x00, 0x00, 0x00, 0x03, 0x00, 0x00, 0x00, 0x00, 0x00, 0x16, 0x00, 0x1c, 0x00, 0x18, 0x00, 0x00, 0x00, 0x14, 0x00, 0x10, 0x00, 0x0c, 0x00, 0x00, 0x00, 0x00, 0x00, 0x08, 0x00, 0x07, 0x00, 0x16, 0x00, 0x00, 0x00, 0x00, 0x00, 0x00, 0x01, 0x14, 0x00, 0x00, 0x00, 0x20, 0x00, 0x00, 0x00, 0x20, 0x00, 0x00, 0x00, 0x01, 0x00, 0x00, 0x00, 0x3c, 0x00, 0x00, 0x00, 0x02, 0x00, 0x00, 0x00, 0xff, 0xff, 0xff, 0xff, 0x08, 0x00, 0x00, 0x00, 0x04, 0x00, 0x04, 0x00, 0x04, 0x00, 0x00, 0x00, 0x1d, 0x00, 0x00, 0x00, 0x73, 0x65, 0x72, 0x76, 0x69, 0x6e, 0x67, 0x5f, 0x64, 0x65, 0x66, 0x61, 0x75, 0x6c, 0x74, 0x5f, 0x69, 0x6e, 0x70, 0x75, 0x74, 0x5f, 0x6c, 0x61, 0x79, 0x65, 0x72, 0x3a, 0x30, 0x00, 0x00, 0x00, 0x02, 0x00, 0x00, 0x00, 0x01, 0x00, 0x00, 0x00, 0x08, 0x00, 0x00, 0x00, 0x02, 0x00, 0x00, 0x00, 0x20, 0x00, 0x00, 0x00, 0x04, 0x00, 0x00, 0x00, 0xf4, 0xff, 0xff, 0xff, 0x19, 0x00, 0x00, 0x00, 0x00, 0x00, 0x00, 0x19, 0x0c, 0x00, 0x0c, 0x00, 0x0b, 0x00, 0x00, 0x00, 0x00, 0x00, 0x04, 0x00, 0x0c, 0x00, 0x00, 0x00, 0x09, 0x00, 0x00, 0x00, 0x00, 0x00, 0x00, 0x09
};

const unsigned int g_model_len = 2504;
